0F
10
02
3A
2E
0F
00
36
3F
3D
39
08
0C
35
10
0C
3D
28
34
39
31
15
37
24
3D
35
01
00
26
3A
0B
05
05
3D
3F
0F
33
3B
33
35
3A
38
08
02
33
3E
04
08
3B
2C
06
3C
30
3D
33
31
08
36
0A
34
0D
04
07
04
34
08
3F
03
03
02
08
06
06
3F
32
04
0C
3C
31
09
37
3F
08
34
05
00
04
07
3D
33
05
34
3D
04
0C
06
3F
0E
03
02
0C
00
05
33
3E
05
01
08
3D
08
36
37
00
11
33
2F
09
00
03
01
07
3F
00
3B
04
07
04
07
01
09
02
05
0E
32
07
3C
3A
3E
3C
06
00
37
3D
3A
3A
09
10
0E
07
09
38
12
3D
0B
08
38
02
00
09
36
3A
08
02
1F
1F
2F
3D
30
03
12
3A
07
2B
31
02
03
37
2C
3E
38
0F
0B
25
1F
01
0F
3D
2C
0F
28
12
35
35
01
3A
3F
3B
35
2F
38
3C
0B
3B
3F
36
3E
3B
31
3C
38
07
03
3E
08
04
02
05
31
0D
01
0F
05
06
3E
03
3B
38
10
33
14
03
35
09
2F
2E
02
08
08
3D
37
10
37
09
0A
32
02
02
38
31
32
3D
01
02
0A
04
0F
39
3A
3B
14
1F
08
37
0B
36
25
3F
2C
05
01
3E
0E
15
1F
18
37
0A
2B
15
0C
3C
3A
10
15
0B
1A
2F
14
02
3A
00
37
3C
36
06
02
0B
04
02
35
36
01
3E
32
04
2B
2E
3E
31
3C
36
2F
07
3B
3B
01
39
00
08
37
37
10
05
1F
20
00
07
20
31
05
39
3C
02
06
0A
38
0C
32
29
30
07
17
0B
1C
36
36
3B
3A
2D
37
06
02
0F
12
06
07
39
00
0D
35
08
0D
3C
3B
35
3B
3A
3D
09
26
0F
03
38
3A
3D
3F
06
2E
0E
0C
04
11
38
38
03
3B
34
0C
18
38
3C
0A
36
02
00
05
2F
09
05
0D
3B
1A
3C
3C
12
03
03
0B
03
18
07
0D
02
00
34
0B
06
36
06
3C
3D
03
3B
3E
36
22
36
0E
04
0D
0E
3E
07
3C
04
06
08
37
3D
09
02
0E
08
02
2E
3A
34
3E
02
01
37
25
22
0E
04
3F
01
03
04
02
03
37
07
07
01
2D
0C
04
35
06
3B
3C
37
3D
38
3C
35
3F
07
03
06
01
07
3C
24
14
0F
02
0E
35
02
01
13
0D
05
06
0C
20
3D
3B
20
00
00
27
0A
3F
36
04
2D
3F
00
07
