3D
3F
3D
00
04
03
3B
01
01
3D
3F
05
3D
3F
03
3F
03
3E
02
02
01
03
01
3E
3E
3D
3C
03
03
02
06
03
04
02
00
3E
3F
01
02
01
00
00
3C
04
3E
3F
3E
05
05
3D
00
03
00
03
01
03
03
02
3E
07
38
00
3D
35
37
39
3D
38
05
01
3F
02
3F
3D
3F
3F
03
01
02
01
02
02
3F
02
3F
3E
00
3D
04
00
3F
00
03
3F
04
06
00
02
1B
06
01
01
06
0A
00
04
05
0C
03
3F
3E
3E
06
03
02
3E
03
04
01
01
02
3F
3F
3F
03
01
3E
3B
01
05
02
02
3C
02
03
01
02
02
00
04
01
02
3A
00
02
3E
37
03
01
00
3E
03
00
3E
05
04
3D
3F
3F
00
3C
3B
3C
05
00
02
03
01
05
08
3E
3C
3E
3D
3D
01
08
3E
03
3F
09
05
3D
01
05
3B
03
06
06
01
3F
05
01
3F
04
03
3E
01
3F
3E
03
3E
00
3F
3E
00
03
3F
3C
06
00
3F
02
3A
3C
3D
3B
3C
3D
38
3D
06
3F
03
3F
07
3E
02
3D
3E
00
05
02
01
01
3F
01
02
00
03
2B
0E
05
37
00
0B
3B
06
3E
03
00
00
01
01
00
03
01
3F
3F
00
3D
05
02
02
3F
06
3C
06
00
04
00
3E
02
3E
01
02
00
3F
3D
00
3C
3E
3F
3E
01
3A
01
00
03
3E
06
05
02
04
05
3D
3C
01
01
02
01
04
3E
02
00
00
3D
05
3D
05
3E
3B
3C
3B
01
36
00
3B
39
05
00
05
05
01
01
3E
3C
01
3D
3F
01
04
03
01
3E
03
00
3B
00
01
3D
0A
05
04
04
01
05
03
00
3E
02
3F
01
03
04
3E
00
3E
03
3D
04
04
00
3D
3C
05
04
01
01
03
01
3F
03
06
3A
3B
3F
05
3D
3B
01
3F
3E
00
02
3F
02
00
3F
02
05
03
3C
3C
05
01
06
07
3F
01
06
3C
03
3F
02
3D
3C
3E
03
3F
00
3E
3D
01
01
03
36
3D
3D
3D
02
3C
3F
3E
3F
3C
3D
3F
03
03
04
3F
3D
3D
04
39
3A
05
00
02
06
03
00
00
03
3D
3E
02
3E
00
00
3A
01
01
02
05
3D
04
02
3C
03
02
3F
3F
3C
3F
01
01
03
02
04
3F
07
04
01
00
06
02
00
02
3E
02
04
03
00
3B
03
02
06
06
03
3F
12
05
03
36
3B
3C
3C
06
02
01
04
3E
03
3B
3F
01
3F
00
01
3E
3A
39
03
3A
3A
01
3F
00
02
04
01
06
3B
3F
00
04
00
3F
00
03
01
3B
05
00
3E
01
04
3E
3C
01
3D
3C
01
3D
3B
04
00
01
02
3D
05
3D
3F
3E
03
3C
02
3B
3C
3D
39
01
01
01
3F
04
3C
02
3F
3C
03
00
04
02
03
3E
3C
3C
02
3F
3C
3E
3F
00
3C
39
3A
06
07
03
3D
01
3D
01
3D
02
00
03
03
02
01
3E
06
02
02
3E
00
02
01
02
05
02
3F
01
3D
3E
3E
3F
3B
3F
01
3D
05
01
3B
3F
3D
01
05
02
04
01
01
3D
03
03
02
3C
3C
02
03
04
01
3F
03
3B
3F
38
02
3E
00
02
04
03
3B
3F
01
3F
3B
3E
3F
03
3A
02
02
3C
06
08
02
3B
00
03
3D
00
04
3F
00
02
03
05
3B
05
05
3E
3E
39
3C
3D
02
01
3C
00
03
02
00
04
3D
3B
3C
3F
3F
3F
3E
03
3F
01
3F
3F
00
02
00
02
3F
39
3F
3C
02
01
01
00
03
3E
04
01
00
3F
00
00
01
3E
02
05
01
02
03
3C
04
03
3A
39
04
01
03
05
3C
01
01
3E
02
03
00
06
3E
07
02
07
3C
08
05
04
05
03
3E
06
03
07
09
0D
02
07
06
0A
3E
08
3F
3D
00
04
3D
3E
3B
3E
07
01
3B
02
05
04
3B
3E
00
03
00
00
0E
02
04
00
03
3B
3F
3C
3E
38
01
04
3D
3E
00
3D
01
04
04
03
01
05
02
02
3E
00
05
06
03
3C
3B
02
04
3F
3F
03
05
07
04
04
3B
07
3F
09
3E
04
3F
03
3F
06
3B
3F
05
02
3D
3C
04
07
00
01
05
03
01
01
02
06
3C
02
3F
00
01
3E
03
08
05
09
3E
00
00
03
00
05
01
07
01
3C
00
3D
00
02
02
03
05
02
00
07
03
01
03
05
00
04
00
01
3E
03
02
02
01
07
3E
05
02
03
06
3E
3F
05
05
0E
3B
06
04
04
3E
00
00
02
3E
01
3E
02
02
01
3D
03
00
02
02
03
09
04
3D
03
03
3F
3E
01
02
3E
01
3C
3B
3F
3E
04
01
03
3C
04
00
01
00
05
3F
3E
04
3D
3A
01
03
06
06
00
04
00
05
0A
01
05
04
00
3C
07
02
01
3E
05
3F
03
3D
31
02
20
32
21
3B
02
3F
3E
02
3D
01
3B
3A
3C
3F
01
04
3E
00
05
04
3F
00
3C
00
02
00
05
03
02
06
07
3F
3E
03
03
3D
03
01
3D
03
3F
3B
3D
3A
3E
3F
05
05
3C
02
01
00
3E
04
03
02
35
00
3D
3B
04
3A
01
05
3F
03
03
02
39
3C
3C
3F
3B
01
3D
3E
3B
01
3E
3E
00
00
3F
3D
01
3F
03
04
3B
3E
3F
3A
01
02
3A
05
37
03
37
3F
39
06
3B
00
39
3F
00
3E
38
02
04
3A
35
39
3D
03
3E
3E
3F
05
05
00
3D
3E
3F
01
00
00
3E
3F
3E
3F
3A
39
02
04
3B
37
36
3F
3E
00
3C
3E
02
02
38
3C
3C
04
34
3B
3F
01
01
02
3D
3F
3D
3F
3D
3C
00
02
01
3F
05
3F
3F
02
3F
00
3B
3E
02
3D
3B
3F
37
00
3E
3E
3D
02
3E
03
05
3C
34
05
3E
3C
3D
02
3C
3F
39
01
02
3F
05
3C
02
06
00
3C
01
3D
3E
3E
3F
02
3E
03
00
3A
3D
04
02
02
03
03
05
03
3C
01
3E
07
03
3C
08
09
01
00
03
02
02
02
05
05
02
3F
00
08
00
08
2E
13
19
09
32
01
02
3E
3A
3D
06
03
00
00
01
05
02
3C
3F
3C
00
38
3A
02
3D
02
04
02
3C
3B
3F
3F
3C
37
3C
02
3D
01
3E
3C
00
05
3D
03
03
02
3C
01
04
01
3B
04
05
3C
00
3F
04
3C
00
03
05
01
3B
3F
05
3C
00
3D
01
01
00
01
3A
04
04
03
3A
00
04
00
3E
02
3F
05
00
01
3F
3C
04
05
03
3D
02
04
02
03
06
08
04
07
05
06
04
34
3E
00
3F
02
02
3C
3B
00
3B
02
3D
3A
01
3B
02
3E
3D
3B
3B
01
3E
00
02
3D
3B
3D
00
3F
02
06
04
00
05
09
04
09
06
3E
02
3C
01
3E
02
02
00
3A
3E
04
3F
38
39
01
02
02
3E
3E
3E
3F
02
3C
3F
3F
05
00
3F
00
01
3A
3E
03
00
01
00
02
3F
04
03
01
03
04
04
00
03
03
04
05
04
04
06
00
3B
3D
00
3F
3B
3F
3E
3E
3F
00
00
3B
3C
3F
3C
3F
3E
01
00
3F
3E
3C
3B
04
04
01
00
01
3D
05
3E
07
00
02
03
3D
04
3F
04
3E
04
00
3F
3E
03
3F
03
02
00
03
3C
39
3A
3F
07
3E
03
3E
39
3C
02
3D
3E
3D
3C
3B
3F
02
02
01
05
3B
3F
3F
3A
05
06
3F
02
01
00
04
3A
04
02
3E
3E
09
01
3C
3B
04
3E
3F
01
03
05
01
3F
00
00
02
01
05
3C
3E
3E
3C
3F
3B
3A
05
03
01
05
02
3E
3F
00
05
04
3F
08
00
3F
3E
3B
01
3F
3D
04
3B
02
3D
3C
39
3E
3C
00
39
3B
03
01
00
01
03
3F
3F
04
3D
3B
3E
04
00
00
3C
04
3F
02
01
04
3D
02
00
00
3F
3B
0B
03
06
01
3B
3F
03
3D
01
02
3B
3F
00
3C
3C
01
00
3D
3E
3C
3D
02
3E
3E
04
01
01
08
3D
06
3F
3E
03
01
03
02
3F
04
04
01
08
04
08
3F
01
02
3D
03
02
39
00
04
00
3F
03
04
3D
01
3E
3B
04
02
03
01
06
02
08
06
3F
3F
04
00
3D
3E
3C
02
3F
02
38
06
00
38
3B
3F
3F
01
3D
3E
3D
01
00
3E
00
01
00
3E
02
3C
3D
01
3E
3C
3E
3B
3B
02
3D
3F
3C
02
03
3D
02
08
3E
3F
02
03
02
01
03
04
3D
04
00
01
04
3D
01
3D
3F
3E
3B
3F
3D
39
00
3E
3A
38
00
3C
3C
01
3E
01
3D
3E
00
3D
3C
00
04
05
03
01
01
03
00
02
3F
3C
01
3D
02
02
06
3F
3B
3C
01
3E
3B
3C
3B
3F
02
3E
3C
3D
3E
00
3F
3A
03
02
3C
3E
3F
00
02
3F
01
3F
00
3F
03
03
03
05
06
05
03
00
00
02
0A
07
05
07
3E
02
01
3C
01
02
02
04
04
3F
01
02
01
04
3E
3C
00
3F
05
03
3E
3C
02
01
04
39
01
3D
02
3D
01
3F
00
04
01
01
04
3E
3A
3D
04
03
00
01
3E
02
01
00
00
3F
01
3F
03
02
02
3C
00
01
01
3F
39
3F
3F
03
3F
39
3B
3D
3E
3F
3F
02
05
3E
3F
02
01
3C
3F
3F
01
3B
07
00
3B
3F
3B
3E
3D
3F
04
02
02
04
3C
00
3F
3E
3C
01
01
04
01
3F
02
07
3C
00
06
00
3F
02
3E
3E
01
3D
00
3D
3F
04
00
3D
04
00
01
3F
3E
00
3F
00
3B
03
00
00
00
3F
04
00
00
01
3B
3B
06
01
3D
3A
02
00
01
02
00
3B
3F
03
04
3F
01
3E
05
04
3E
3E
01
03
04
3F
3F
01
3D
02
3E
02
02
06
04
0D
0B
0F
04
3C
01
3C
02
3D
04
00
05
03
03
00
01
00
3F
06
3F
3F
00
3C
37
3B
00
02
3F
05
3D
3F
04
3C
01
3F
3E
3F
03
01
3B
3F
03
3F
3D
3E
01
3B
3C
3E
06
3E
03
06
01
3F
03
03
38
02
04
3E
00
3C
3A
02
3D
03
02
3B
00
01
01
3E
03
3D
01
3E
3B
02
04
3C
02
3F
3F
3C
3F
3D
04
01
05
03
00
3F
04
39
3E
3F
3C
08
3F
3E
01
3E
04
3F
05
06
08
04
02
09
09
0C
07
00
3B
3A
05
3F
02
3E
00
02
02
3F
3F
02
3A
01
04
3B
01
3E
3C
3E
3C
3F
3D
02
3F
04
00
01
05
02
02
03
01
02
3F
08
3F
02
3D
03
01
06
00
3E
3E
02
01
00
05
3E
02
02
3F
00
3F
3C
00
00
01
02
08
3D
07
00
03
01
3F
00
00
3D
3A
02
38
38
01
36
3C
02
3E
04
3E
00
3F
04
3E
3E
3E
01
3F
02
01
01
00
03
3E
00
02
02
3B
3B
3E
05
04
3A
04
06
07
3F
00
02
3F
3F
3F
03
3E
3C
02
3F
3E
3C
3D
3E
02
00
00
3E
03
3D
04
3F
04
3D
0B
08
06
0A
03
05
00
3D
06
3D
02
03
3F
01
02
00
3D
01
02
3E
00
3E
02
01
00
3B
02
00
3D
01
05
3F
04
3C
01
01
04
3E
01
3E
02
3A
06
00
3D
01
03
03
03
04
00
3A
3D
3D
3D
04
04
01
02
3A
03
06
01
03
3E
3B
3B
3E
38
34
3B
03
03
02
3C
00
3D
04
01
3B
01
01
00
00
00
00
04
3C
00
01
3E
04
04
3E
04
03
01
06
38
06
37
00
3F
02
3F
3D
3F
03
00
05
04
07
04
03
00
00
3A
02
07
00
00
02
03
02
3E
01
3F
3D
00
05
3D
3E
3A
3C
00
3C
01
3E
05
02
3B
3C
3D
03
3D
3D
00
3F
02
04
3D
0B
3E
3F
3E
03
3D
05
02
3E
3F
00
00
3A
3E
03
04
02
02
03
00
01
04
01
04
04
05
3C
3F
04
02
05
3F
3A
00
3E
05
05
39
01
3D
05
3C
00
03
00
3E
3F
00
02
3E
3D
3B
00
08
3C
01
3F
01
06
05
01
05
02
3E
00
3F
03
3E
03
3F
3A
3C
37
02
02
3F
03
00
05
3F
01
3B
3E
3E
00
03
03
03
3E
3E
00
3B
03
03
05
3B
3E
05
39
3A
01
00
03
3D
3C
3E
01
00
3E
03
3E
00
3C
02
03
3F
04
3C
3D
00
01
01
3D
3E
01
3D
36
3F
3B
37
3A
3E
02
3C
3A
00
3E
04
39
04
03
00
3A
3D
04
02
3B
3F
3F
01
00
02
02
3F
3D
04
3F
39
03
02
04
02
08
08
08
06
05
0B
04
04
3D
3E
3F
39
01
03
04
39
3D
01
3F
00
02
3F
04
01
3D
3E
3D
05
00
3E
3F
3D
3F
3B
00
02
3E
3D
00
04
07
3B
03
01
3C
3F
00
02
02
00
05
3B
05
3A
3D
02
3C
3C
3D
3F
3E
01
01
02
00
3D
3C
3A
01
02
00
02
3D
3F
3E
3F
00
3F
00
04
04
00
05
00
01
3E
3C
00
01
00
02
02
01
03
03
00
02
04
00
01
02
3D
3D
3B
3D
3D
3E
00
01
01
02
06
3D
3F
3C
3C
01
3B
3E
07
3D
00
3F
02
00
3F
06
04
00
3B
03
3F
3E
3F
3E
02
3F
03
05
3E
3F
3D
00
3D
01
02
03
3F
3E
3F
39
03
06
3F
3D
3F
01
3E
00
04
00
3F
05
05
02
06
03
3B
01
00
02
05
00
3F
02
3D
01
01
04
09
3E
3C
03
01
03
06
0A
02
00
3F
3F
03
02
04
3B
02
3C
02
01
07
03
3D
01
3C
39
3F
38
00
3A
3D
3D
00
39
3E
3D
05
02
00
3F
02
01
02
05
3F
00
3E
02
3D
3D
00
3E
3C
00
00
3B
01
03
3E
3A
01
05
02
01
01
05
3C
07
08
09
06
06
0E
09
0A
0A
09
01
05
3B
00
03
01
04
3F
3F
01
01
3C
01
00
3B
01
3B
3B
3C
39
04
02
3F
02
03
02
06
3F
3D
01
37
3E
00
01
04
3D
3E
3B
03
06
02
03
0C
09
02
04
01
00
03
00
01
3D
3F
3F
3E
3A
3C
3A
03
08
05
0C
09
3A
01
39
3A
00
3C
3F
00
03
3F
3F
01
06
04
07
00
09
3F
03
07
03
02
01
3C
00
01
3F
3E
3B
01
3D
00
00
05
05
3C
07
07
3F
02
07
06
07
0E
01
01
06
02
04
06
39
3F
01
05
0B
3F
3F
05
3C
3D
00
3C
3F
02
00
3D
3E
3F
05
3E
00
3C
01
01
04
01
3D
3C
3D
00
3C
3D
3C
3E
01
03
3C
04
3F
3A
3B
3B
39
3D
3D
3D
02
00
3F
04
04
04
3F
3E
3A
3D
03
3F
05
00
3E
35
04
3B
02
00
01
01
02
00
3E
3C
01
00
00
01
00
01
00
03
02
3B
30
3F
39
3E
3E
38
3B
3C
36
35
3B
3D
37
3D
3E
3E
3E
3D
05
01
3F
3B
3D
04
3F
02
01
02
04
3E
01
03
03
02
00
3C
3C
07
01
09
3E
3D
3A
02
00
04
3C
3D
08
02
04
03
04
00
03
3A
37
3B
01
01
05
01
03
02
00
3B
05
03
00
3F
3F
00
3C
3E
3A
3C
02
3F
3A
06
3D
01
08
05
01
3B
3D
3F
03
05
00
02
3C
05
00
3E
39
3B
3F
3F
3F
3B
3D
00
3E
3D
04
3F
3C
02
3D
3A
02
01
02
3F
3D
3D
04
03
3C
01
3A
00
3D
3C
03
3D
04
01
39
3D
03
3B
01
06
00
3B
03
02
02
02
04
05
3F
3C
01
3E
3C
03
00
3A
03
04
01
3C
02
05
3B
09
3C
06
06
05
3D
3E
3F
06
3F
01
3A
02
09
3C
01
07
02
3E
00
04
01
01
00
02
02
01
3E
01
02
00
03
03
01
3C
3E
35
39
3E
3D
3C
01
3D
00
03
05
02
3C
3F
3F
00
03
03
3F
3A
04
3E
3F
3E
00
00
04
05
3F
00
34
3B
09
00
0B
08
04
38
3D
3E
3D
02
3E
02
02
01
00
00
3E
04
3E
3E
3A
03
04
06
3A
02
3F
3E
3E
3F
07
02
3E
3F
02
3F
3B
06
3C
00
02
02
3F
3D
3F
06
04
3E
3F
01
01
01
00
3E
05
00
00
3F
00
05
3E
04
3D
01
06
08
07
06
01
05
3D
3E
02
00
3F
04
3F
02
3F
3C
06
00
02
3C
00
01
01
3C
01
3F
01
3E
00
3E
00
3F
3C
01
00
09
01
03
02
00
04
03
04
3E
00
3C
00
3C
3E
3F
00
3C
39
3E
3C
3E
3F
01
01
02
3D
02
06
3E
03
04
3E
03
00
04
00
02
00
3C
00
3F
3D
00
3E
00
00
00
00
05
02
3C
00
3F
02
04
02
3B
3C
3F
3F
01
3E
3C
02
02
3E
02
00
3F
00
06
3F
01
02
00
04
03
05
01
3C
3D
04
04
3B
05
01
00
03
00
00
00
05
3F
08
04
3D
02
02
02
02
00
01
01
03
06
3E
00
06
3B
3D
3A
01
02
00
3E
3C
00
01
3D
00
01
02
02
05
00
04
08
05
00
07
3F
3D
3D
01
00
06
06
05
3F
3D
03
00
3F
00
3F
00
00
39
02
02
00
3E
3E
3F
38
00
3B
3B
02
00
3C
3E
3F
04
3E
3D
02
03
01
04
3D
35
00
3D
3C
3A
3F
02
3D
36
3E
3F
3F
3A
39
01
3B
3C
3A
01
3F
3F
02
3E
01
04
02
3F
02
00
3F
04
3E
03
3A
01
02
00
02
00
01
02
01
3E
08
3F
03
3F
3D
00
3F
3E
36
05
06
05
3F
3D
3E
06
05
00
3F
04
01
3A
3C
3E
3E
00
3E
3D
02
01
00
04
01
02
01
0D
08
03
3F
3D
00
3B
03
00
3E
06
3E
3C
05
00
00
00
3E
3B
05
00
3F
3F
03
3E
3D
03
01
3A
3D
03
3C
3F
00
03
00
02
07
02
04
3F
06
01
01
03
3F
00
03
02
01
06
03
05
07
05
02
00
05
3C
3F
3B
3A
3E
3D
00
3B
02
3E
02
3A
3E
00
00
3C
3F
00
3E
3B
00
00
01
3F
05
3C
02
3D
02
00
00
3C
03
3E
09
05
3A
02
03
3D
04
3E
00
01
07
00
3E
3C
02
3D
02
3A
3B
03
00
00
00
00
00
39
02
3F
00
03
05
3D
3C
00
04
00
36
03
39
04
02
08
05
04
3E
02
3C
3F
3F
06
3D
00
3E
3F
3F
02
00
3B
04
01
00
38
03
05
04
05
01
3F
3E
02
3F
3B
3F
02
02
3A
00
02
3C
3F
3D
00
01
3F
04
3B
37
3F
3D
04
39
3C
3D
03
3E
3D
02
04
01
02
3F
02
05
00
04
3F
01
04
3B
02
3C
3A
3D
39
38
02
00
3D
37
02
3C
04
00
3E
02
3D
3A
01
38
00
04
04
3D
00
3E
3B
3E
04
00
06
00
3E
3F
3A
3C
3B
3E
3F
3B
3E
3F
3F
3E
3D
07
3B
00
3A
3E
02
07
05
04
3B
00
05
02
3F
03
08
03
05
3F
3D
3D
3F
3B
3F
3E
39
3D
3D
3F
00
3D
00
00
3A
01
3E
01
3B
03
3D
3F
3D
3C
02
04
3B
3E
01
04
00
03
00
3C
03
39
02
3F
3D
05
02
01
3B
3E
3D
3E
3C
00
3C
02
01
03
3D
00
3E
06
3F
3F
05
02
00
01
01
02
3D
04
3C
02
3D
01
3F
3E
02
01
01
09
3C
3D
3E
04
03
01
01
3E
3B
3A
3C
3F
39
3C
02
01
03
00
05
3E
3E
3C
00
39
39
00
04
00
03
3C
07
03
03
05
02
01
03
04
03
02
3B
3A
02
3F
3F
3D
3E
02
01
03
04
3D
04
3C
3F
05
3E
3E
00
01
04
3E
3C
03
07
00
02
3F
00
3E
01
00
3C
3F
01
02
00
02
02
3F
09
0E
09
00
04
05
02
00
3F
3C
3F
01
3F
03
00
03
3E
3B
3C
3F
02
00
3F
00
3F
00
00
02
3E
3F
04
3F
06
3E
00
08
06
05
39
00
3D
39
3B
34
3E
3C
3C
39
03
01
05
3B
03
3C
04
03
04
03
01
00
03
04
3E
02
02
01
00
03
3E
3E
02
3F
00
00
03
05
3E
04
04
08
04
3F
3C
02
3C
3D
00
06
2E
3E
00
3F
3F
3C
02
01
04
3E
00
03
00
02
3E
3B
3B
04
08
3A
05
3C
3E
3B
04
00
04
3E
3F
00
02
03
3D
00
3F
01
00
00
06
03
05
02
3F
08
01
00
01
3D
3E
3E
02
00
01
02
05
3F
3C
02
00
00
00
3F
00
3C
07
3D
3A
3F
39
02
3F
38
36
3B
03
06
3B
06
03
3F
07
3D
3C
09
04
02
3F
3E
01
00
3F
00
01
3D
3C
3F
3F
3E
3D
00
03
03
3F
3E
3F
03
09
3E
08
0A
03
02
08
03
00
3F
3B
3F
01
03
07
02
3E
01
05
02
04
39
3F
05
00
3E
04
39
3C
04
02
03
02
38
2F
02
02
00
3D
3D
02
07
06
00
3F
04
01
02
00
05
02
01
00
01
02
01
00
3D
01
04
3F
03
02
00
01
3E
3F
3D
3B
02
3C
04
3A
3D
02
03
00
00
3A
01
01
3B
01
00
3D
01
04
3F
3E
02
3F
03
01
3E
3D
01
3E
3E
04
06
3E
3B
3E
01
3D
00
3E
3E
3E
3F
00
3D
3F
00
03
3F
3D
00
02
3F
00
00
02
01
3F
00
3E
05
3A
05
32
0C
3C
3D
38
02
02
3E
3F
00
3B
3E
3D
38
3A
3C
3C
3E
3B
3E
04
3F
06
02
00
04
03
03
3F
3C
03
3B
00
3B
3B
00
00
00
02
3A
3F
00
3E
01
3E
04
03
01
01
3C
3F
03
37
3A
00
38
3F
02
05
01
01
3E
3D
3D
06
3E
3D
02
3B
00
3F
00
3F
04
3D
3E
06
02
01
37
39
3D
00
04
3E
00
3D
06
3D
3F
3E
04
3D
3C
3F
02
3F
00
01
00
00
04
02
03
3F
01
03
01
3F
3E
05
3B
3D
01
04
01
04
04
3E
01
02
3B
02
3B
3E
3D
02
3F
3C
00
01
02
02
3D
07
02
03
3F
05
03
3D
00
03
3F
3C
3D
3F
3C
0C
2A
3A
33
14
3E
3E
03
3B
3F
02
3C
02
3D
3D
04
3E
3C
03
3C
3F
06
3F
04
3D
03
02
01
01
05
3F
3F
01
39
05
01
3F
02
06
04
3F
01
01
03
3F
04
3A
3F
3E
3F
00
3E
3E
02
06
05
3E
3E
3F
05
03
06
3F
00
3F
3B
3F
3C
00
3A
3B
3D
3D
00
00
01
01
00
00
03
3F
02
3E
03
00
3A
3E
04
3D
03
3A
3E
08
03
04
3E
04
05
00
00
04
3D
03
02
04
01
3E
00
3C
3E
00
3A
01
00
00
03
39
3C
01
02
02
02
02
3F
03
3F
02
01
3D
04
02
00
3E
03
3F
02
3C
03
02
3F
3C
3D
03
00
01
01
00
01
3E
00
02
3F
01
01
02
3F
3A
3E
01
04
01
01
02
3C
3A
01
3C
02
02
3D
3B
01
00
3F
00
3F
03
02
3F
3F
3E
3D
3C
04
01
3F
00
02
01
02
3F
00
04
01
05
07
08
07
02
00
3F
3B
00
01
02
00
02
3D
02
3C
04
3A
01
3F
06
00
04
01
02
3B
00
01
39
05
3C
3D
04
01
01
02
01
3F
38
05
3B
3F
03
00
04
3E
02
3C
00
00
3E
3C
3F
05
3C
01
03
3F
39
02
3C
02
3D
04
3E
3F
01
02
05
3E
03
3F
3F
3F
03
3F
01
02
01
3D
3E
04
03
06
00
01
00
01
00
03
02
3E
03
04
3E
01
3F
3D
00
03
02
00
03
01
3C
02
3E
03
3F
3D
00
05
05
3F
03
02
02
03
00
00
02
02
08
0A
06
08
06
3B
01
3E
05
3E
3D
04
02
03
06
06
00
3F
06
02
3C
01
04
3F
02
3E
06
01
01
00
3A
3A
3E
3F
00
00
01
3E
02
3D
3F
3F
04
03
38
3F
02
04
02
05
06
02
3F
00
01
00
3E
3F
03
01
00
3D
3F
3C
00
3C
01
3F
3F
3E
00
04
3C
02
3D
02
03
04
00
3A
00
3E
3F
00
07
3F
02
3F
3E
06
01
02
00
00
00
02
02
3D
00
3C
04
3E
06
02
3B
3F
3C
02
03
01
3A
02
02
03
01
3A
39
02
02
08
01
00
02
00
01
02
05
00
3D
3F
04
02
3B
03
06
3C
01
3C
3E
00
3C
3F
05
04
3F
01
02
3F
3D
3F
3F
00
03
3F
3F
01
00
3F
3D
3E
3F
3D
3D
00
3D
00
04
3F
00
3F
3E
3F
01
02
3F
04
3E
01
3A
3E
03
3B
3F
04
08
00
00
02
00
3D
04
05
02
05
01
3B
00
03
3F
3D
00
04
3E
00
02
07
3A
3E
07
02
06
05
04
05
06
3D
3F
02
3F
3E
02
04
01
3C
3D
04
3C
3E
01
04
03
05
3F
01
03
01
3E
3F
3F
04
03
3C
3E
05
38
38
3F
3E
00
05
3F
01
08
04
02
3F
3E
07
02
01
01
02
02
3C
06
01
05
3F
02
01
3B
04
06
3F
02
00
3F
3A
3A
36
36
36
3D
37
00
00
00
3E
06
02
04
08
13
3F
3D
04
08
01
03
02
3D
00
02
3B
00
03
00
00
3D
3F
03
3E
3D
3A
39
3A
3D
03
3A
04
3F
3C
3C
03
3D
00
3A
3E
3E
04
35
3A
38
38
3B
38
3D
07
00
00
01
00
00
3F
3D
00
03
3A
00
3E
04
3E
03
3D
3D
02
3E
03
3E
3E
3B
01
04
05
04
04
37
3E
3F
3F
38
02
3E
3E
3E
3E
01
03
00
00
3D
3D
3E
04
3C
01
3E
05
00
02
3F
01
3E
02
01
00
08
01
06
06
07
01
04
04
07
08
04
04
06
0A
3E
02
04
05
05
02
01
05
3D
03
00
04
03
3F
02
0D
05
3E
32
0D
08
09
3A
02
3D
3E
3D
3F
03
02
3F
06
03
00
04
00
02
01
01
3B
3F
39
3E
3F
3C
00
03
00
3F
3D
04
3F
00
06
01
3E
3C
02
3D
3C
03
3E
03
3B
3E
03
00
3B
03
3D
02
02
05
3B
3F
09
00
3F
02
01
03
02
02
04
0C
04
0D
08
07
05
3E
3F
00
3D
06
03
01
3C
01
05
3D
01
3E
3C
02
02
04
04
00
3D
00
00
0A
01
02
01
01
3D
01
00
3F
02
09
01
3E
02
08
04
03
3F
04
00
05
05
3C
07
3E
03
02
3D
03
00
3F
01
04
02
01
3D
3D
3F
3E
03
00
03
08
01
03
3E
01
3A
01
3F
00
3E
00
00
02
04
3B
35
08
00
35
3B
09
02
03
00
03
03
06
3D
3E
3F
03
3E
3D
04
00
02
02
04
06
05
06
03
08
03
3E
3C
3E
3F
02
38
3D
00
3A
06
07
3F
01
3E
08
3F
01
03
3E
06
3F
05
05
01
39
01
00
01
00
01
3D
03
3E
04
3A
3D
00
3B
3E
01
3B
3D
00
03
3A
00
3E
03
04
3E
02
02
3F
04
02
3D
04
3E
03
3F
04
02
02
3C
04
3F
00
00
39
04
37
3C
3C
3E
3D
3F
3C
3C
3C
3F
3E
3F
02
04
04
00
02
3F
06
07
04
3C
3B
05
02
04
0A
00
3C
3D
3F
3E
3F
3D
3E
01
00
3D
02
05
00
00
3F
3F
03
3D
00
03
02
03
3F
01
02
3C
3D
3D
3E
00
01
05
00
00
01
3A
3B
02
3A
33
34
39
3E
3C
3F
3F
04
03
02
3F
3D
04
3E
00
05
07
3F
02
3C
02
3C
00
00
3A
3E
3F
00
01
3A
06
37
3F
08
0E
00
00
3E
01
3C
00
00
01
37
3C
39
3D
3F
05
05
05
05
3E
03
02
01
02
3E
01
3E
3E
01
01
01
02
3F
3B
00
3A
03
37
33
02
3A
3E
3F
3E
3E
06
3E
3D
3D
08
01
3E
3A
35
3D
3D
00
3A
3F
3E
3E
00
01
02
3F
01
3F
00
3F
3D
3B
01
04
00
01
3C
00
3A
36
05
3E
02
3D
3F
03
04
06
03
3F
03
3A
36
3B
01
01
05
3F
3D
3F
01
3F
04
01
02
02
03
3C
01
00
3E
06
3D
3D
3C
00
01
3F
00
09
3F
01
01
08
3E
3B
3B
03
03
3B
3E
3C
08
01
00
00
01
04
02
3F
01
3F
3C
3B
3B
3E
04
04
3E
00
37
38
01
03
06
03
03
3D
02
3E
00
3E
01
04
02
02
3F
01
06
05
01
3C
07
00
02
00
00
00
08
03
04
06
06
05
01
00
3E
3F
02
3F
03
04
04
3F
3E
3C
3D
00
02
02
3D
3B
3F
3F
3F
3E
01
3F
02
3B
3F
37
39
3D
38
3C
04
3D
3C
03
02
3D
01
04
07
3C
01
3C
03
01
3F
3D
03
02
03
03
05
02
3F
00
05
01
02
3E
3F
39
31
38
38
3D
3F
3E
3F
3D
3D
05
00
08
01
0A
3F
00
3D
07
03
03
3F
02
00
3E
3D
3D
00
00
02
3E
04
01
3F
3F
3A
3B
3F
02
3F
00
01
3F
39
3D
3D
01
3F
00
00
3B
08
38
3A
3D
3D
3A
05
03
01
03
03
05
3F
00
03
02
3F
3C
00
3D
3F
3C
02
05
3B
3C
3D
01
02
03
00
02
04
08
05
08
02
3D
3E
3D
2F
38
3E
34
02
02
01
3F
03
3D
3F
3A
3C
3E
03
3C
02
03
07
3F
3E
00
3F
02
03
01
04
07
02
00
3A
02
3E
3B
3D
3F
3B
00
06
01
05
00
3E
05
03
3D
02
00
3F
3E
04
04
02
3E
01
02
04
08
06
3A
3D
38
02
13
02
3E
3C
00
3E
3F
03
00
00
3E
02
3F
3E
3E
3D
3D
3F
03
00
3D
3F
3E
3E
00
00
3D
02
3B
3D
00
3E
3D
39
3B
05
01
3B
01
3C
00
3D
3B
02
00
02
04
3B
3D
3F
3F
04
3E
3F
01
01
3D
3B
08
00
09
0B
07
03
06
03
01
02
04
07
3E
01
01
00
02
01
3F
3C
3E
02
01
00
3F
3E
02
3C
05
3E
3B
3C
3A
03
3B
00
03
39
3E
3F
01
04
04
3C
3F
02
08
3C
3E
3F
3F
36
39
3B
02
00
3C
3C
3F
3C
04
00
00
01
3E
00
3D
3A
00
01
3E
01
01
03
01
3F
03
06
01
01
04
03
03
3D
3E
3D
3E
3F
3C
3E
01
39
36
39
3D
3A
3D
01
3F
03
04
00
02
05
3F
05
3F
3F
02
3D
3B
00
00
01
3E
03
00
11
0E
01
02
04
3C
02
03
04
3E
02
3F
04
3B
3F
3D
3D
3A
3E
3C
3F
3C
3F
05
05
3B
3F
3D
3F
39
3E
04
00
01
02
3E
03
01
05
03
01
3E
3F
3E
3C
02
07
03
05
05
02
3E
3D
06
3B
39
03
3C
3D
3C
00
01
03
3E
05
3D
06
04
02
3D
02
05
01
03
02
01
3F
00
3C
3B
02
00
00
00
3C
00
06
00
3B
3D
01
03
02
3C
3B
3C
3E
3F
3E
02
00
3C
3D
3C
03
3F
01
01
01
00
04
00
3E
01
04
02
3C
3F
00
01
01
3E
07
02
3E
02
07
02
01
02
3F
3E
02
3E
3A
00
00
01
0C
01
07
07
3C
02
00
04
06
00
02
05
3F
3C
3F
05
03
01
02
03
3A
3A
3A
01
3E
39
00
39
09
02
3B
00
3F
39
00
07
00
3A
01
08
01
3E
02
12
02
3F
03
09
07
00
03
01
02
00
03
02
04
01
03
3C
03
3A
3F
3A
00
00
00
04
00
3E
05
01
01
3F
3E
01
3C
3F
3D
3B
05
37
37
3F
02
32
3B
02
0A
06
3E
05
3F
3A
3D
04
3B
01
3F
04
01
3F
3A
03
0A
06
3F
09
03
0A
0B
0B
01
3C
05
09
04
3C
3D
00
3E
00
06
3F
3F
09
00
01
06
3D
05
00
06
00
02
3D
3E
00
3D
3D
3E
03
3C
3C
3F
00
3D
3E
0A
3F
05
01
03
02
07
02
03
3F
08
03
03
3D
3C
02
04
3D
03
06
3E
00
03
3B
02
03
3C
3E
07
01
01
37
0F
09
0B
00
01
3C
3E
01
06
01
3F
04
3D
01
01
3D
02
3D
03
00
04
3E
00
03
00
3C
3F
04
00
02
3E
3E
09
3F
03
02
00
3B
3F
06
00
3B
3F
3F
03
3E
02
04
02
00
3D
01
3C
00
3C
3B
02
3C
07
3F
3E
3D
01
01
3D
01
02
01
00
01
03
3F
37
01
04
3A
3F
3D
3E
3F
02
3C
3A
3E
01
00
3D
3D
3C
3F
3E
04
02
3E
02
00
00
3B
3C
3D
3F
3E
39
3F
03
03
00
00
3A
3D
3E
00
3B
39
3D
3E
3E
3E
01
3F
3D
01
02
3D
01
3F
00
02
3D
02
3F
3E
3E
3C
3B
39
3E
01
01
04
3E
02
3C
04
04
3E
04
00
02
3F
3E
3D
3F
3E
3F
02
04
04
04
00
3E
03
02
3A
3D
00
3E
04
00
00
3D
01
00
00
03
05
01
01
03
06
00
04
3E
3F
04
02
00
3E
02
00
3A
3B
3D
05
3B
04
05
01
3F
01
01
04
00
3F
05
3C
01
00
00
04
3A
3D
3E
06
3C
00
01
3E
03
04
00
3F
04
39
3A
3F
02
3E
04
01
01
3E
3B
05
04
3E
02
00
00
01
00
3E
01
3D
04
3B
01
03
02
09
01
0A
00
03
3F
00
03
03
3C
3D
3E
00
3F
3D
01
3E
04
02
04
04
00
00
06
03
04
03
3C
03
3B
02
3C
01
3D
3C
02
02
3D
3A
03
3D
3B
04
03
3D
3E
3E
04
03
3E
3F
02
02
3D
3D
03
39
05
03
3E
3E
3C
05
0B
05
02
0B
10
0A
0B
09
05
04
02
3D
3E
04
00
3C
04
03
3F
02
02
04
05
3A
00
03
3F
3E
01
00
3D
3C
01
03
0E
04
13
05
0F
01
01
02
01
00
3E
3A
02
39
04
00
03
03
3E
01
01
00
3C
04
3C
00
3D
3D
01
3F
04
00
3B
02
01
01
01
07
3D
39
3B
39
39
03
02
03
3C
02
3F
3E
00
05
07
01
01
09
07
03
00
3E
03
04
02
3C
3E
3B
3E
05
02
3B
03
00
01
05
3F
3E
01
05
3D
02
03
38
03
03
3D
03
06
01
04
02
03
0C
03
0B
03
04
04
06
06
04
3A
07
3F
3E
3B
3E
3E
04
01
04
3C
02
00
3C
3F
02
04
00
3F
3B
3D
3C
00
06
02
04
03
00
05
03
04
02
01
3C
3F
03
3A
07
00
3E
02
00
00
3D
01
00
35
3B
01
08
2C
39
38
0C
00
05
02
01
3D
3F
01
02
03
3F
04
3F
00
3F
3B
3E
3F
00
3C
3E
01
01
05
07
06
09
02
06
3F
00
00
02
3E
03
3E
3B
3E
3F
04
02
02
06
3F
06
04
05
3C
3F
3E
02
05
00
02
3B
00
3D
0B
3F
06
05
38
3F
3D
02
3A
35
39
0B
05
3F
3C
3C
03
06
3E
3D
03
3E
3F
04
00
03
00
03
04
04
06
04
05
00
3E
3E
3D
01
04
04
03
00
3E
01
00
00
3A
3E
39
02
3A
10
06
3F
3D
00
3F
3D
3E
02
00
04
01
05
02
00
3E
3F
04
04
06
06
04
04
05
06
01
3F
3C
3D
3D
3B
01
3E
3C
3A
00
06
00
3F
02
3F
3E
3F
3D
39
01
09
3C
3F
3F
03
01
3B
02
03
39
03
3D
05
3C
03
04
08
02
06
39
3B
3A
3A
00
01
3E
3A
01
02
02
3F
05
3E
3F
04
00
0B
02
07
04
3F
3F
00
3C
01
3E
01
3D
3F
01
00
3E
05
39
00
00
3D
03
3A
03
02
00
02
00
3C
01
03
01
3F
07
0A
05
3B
3B
3E
3E
04
3F
03
3E
3C
03
02
03
3E
00
3C
01
01
0C
39
05
0D
05
01
3D
00
3D
3F
00
01
03
06
05
04
02
01
3D
3E
3F
05
01
00
04
04
03
3F
3F
01
3D
00
3C
04
3D
3D
00
00
00
3B
3E
02
06
00
3B
3E
3F
3F
02
3B
3B
3E
00
03
3C
02
03
3F
02
07
00
03
07
08
3F
05
01
38
02
02
3A
36
38
3C
3C
01
03
3D
3E
00
01
02
3E
00
3E
3F
04
00
3F
05
04
02
3C
03
3F
05
38
00
01
3C
15
03
09
37
05
39
01
3E
3A
04
3E
3F
05
39
02
01
01
3A
00
3D
3D
02
00
03
3C
07
02
00
00
06
3E
3F
3E
05
01
3E
01
3D
3E
3F
3C
38
00
06
3E
3D
02
03
01
04
3E
06
05
01
3D
01
03
02
3D
05
3E
05
3F
3C
01
01
02
00
05
02
05
3B
00
3E
3F
3E
05
02
00
3E
3A
3C
3D
3E
36
2F
03
3B
01
04
0A
3D
07
00
3B
03
3F
02
00
03
3E
01
04
00
3F
00
3B
00
3D
3F
01
04
05
3D
02
3D
3F
3F
3F
3E
02
01
3B
3A
3B
3F
03
3E
3B
3E
3C
3C
01
00
03
3D
04
3F
00
3F
02
03
3E
02
01
01
39
3F
3E
04
38
01
34
3E
00
3C
04
00
01
3D
05
00
05
3B
3E
3B
3D
3C
00
02
3E
3D
02
02
03
3F
3B
01
3E
01
01
3A
3C
04
01
02
03
03
05
05
3E
02
03
3B
00
03
3E
03
3E
3A
00
02
3A
06
00
3D
01
03
3C
3C
3A
3A
01
05
3B
03
3F
3F
02
36
3C
37
36
03
3B
02
3C
03
3C
01
3F
02
00
03
3C
3F
00
01
3F
3F
01
01
05
02
3F
3F
3E
3C
39
00
35
06
39
3E
01
02
3F
3D
02
3C
02
00
3E
00
3F
3F
3F
02
00
05
02
02
01
00
3E
00
02
02
3C
3F
3E
05
3C
35
3B
3A
3F
01
02
05
3E
01
05
3C
01
3C
00
00
01
03
09
01
3E
08
00
3F
02
05
00
3F
01
3B
02
3C
3C
3D
3F
3F
01
3B
02
3F
02
3E
02
3D
00
3D
08
08
00
06
05
03
01
02
3D
03
03
02
3D
08
00
01
3A
01
01
3E
3F
01
3E
3F
05
39
3B
02
00
3E
01
3B
02
00
3A
00
02
3F
3C
01
3E
3E
00
3E
3F
3D
3E
3C
3D
3C
3E
02
03
04
3E
3F
3F
08
3C
02
00
00
01
3B
02
3D
04
02
3A
38
39
34
38
3C
01
01
3D
00
01
3C
3F
05
3E
3F
03
03
00
01
3F
01
3F
3D
3B
3F
3B
3E
02
00
00
3C
01
3A
04
3C
02
03
01
3D
3E
3E
3C
3C
00
00
01
01
04
00
3F
00
3F
3D
02
3E
01
3F
01
3F
3D
00
02
3C
01
00
01
3F
03
07
3B
3D
3B
03
01
00
3F
04
06
3B
00
01
02
3E
3F
01
3E
3E
00
3F
3E
3E
3E
3D
3E
3F
3A
00
3B
37
3F
38
06
3F
05
3F
05
01
3F
3E
00
00
3B
39
00
39
3B
3E
3F
00
3E
3F
3E
3E
3D
3C
01
3B
02
3D
3E
3F
03
00
00
3D
3E
02
3B
00
3A
3C
06
04
3E
3B
01
01
00
03
3E
3E
05
32
3B
3F
03
3D
02
3C
3D
04
00
3E
3E
04
00
01
02
3C
05
3F
00
3F
05
02
04
02
00
06
3B
3F
3D
3A
03
34
04
04
03
04
03
07
0B
04
02
04
3E
09
39
03
02
3E
3F
01
03
00
3E
3C
39
3D
3A
04
3A
00
03
02
01
02
3F
3F
3D
04
02
04
02
06
02
3E
00
3B
3F
3F
3F
3D
3E
01
03
3C
3A
3F
3C
02
3B
3F
3F
3E
35
3B
3E
06
3B
3F
3B
03
